#include "model.h"

alignas(8) const unsigned char model_tflite[] = {
    0x1c, 0x00, 0x00, 0x00, 0x54, 0x46, 0x4c, 0x33, 0x14, 0x00, 0x20, 0x00,
    0x1c, 0x00, 0x18, 0x00, 0x14, 0x00, 0x10, 0x00, 0x0c, 0x00, 0x00, 0x00,
    0x08, 0x00, 0x04, 0x00, 0x14, 0x00, 0x00, 0x00, 0x1c, 0x00, 0x00, 0x00,
    0x98, 0x00, 0x00, 0x00, 0xf0, 0x00, 0x00, 0x00, 0x00, 0x0d, 0x00, 0x00,
    0x10, 0x0d, 0x00, 0x00, 0xfc, 0x13, 0x00, 0x00, 0x03, 0x00, 0x00, 0x00,
    0x01, 0x00, 0x00, 0x00, 0x10, 0x00, 0x00, 0x00, 0x00, 0x00, 0x0a, 0x00,
    0x10, 0x00, 0x0c, 0x00, 0x08, 0x00, 0x04, 0x00, 0x0a, 0x00, 0x00, 0x00,
    0x0c, 0x00, 0x00, 0x00, 0x1c, 0x00, 0x00, 0x00, 0x3c, 0x00, 0x00, 0x00,
    0x0f, 0x00, 0x00, 0x00, 0x73, 0x65, 0x72, 0x76, 0x69, 0x6e, 0x67, 0x5f,
    0x64, 0x65, 0x66, 0x61, 0x75, 0x6c, 0x74, 0x00, 0x01, 0x00, 0x00, 0x00,
    0x04, 0x00, 0x00, 0x00, 0x90, 0xff, 0xff, 0xff, 0x0d, 0x00, 0x00, 0x00,
    0x04, 0x00, 0x00, 0x00, 0x08, 0x00, 0x00, 0x00, 0x6f, 0x75, 0x74, 0x70,
    0x75, 0x74, 0x5f, 0x30, 0x00, 0x00, 0x00, 0x00, 0x01, 0x00, 0x00, 0x00,
    0x04, 0x00, 0x00, 0x00, 0xe2, 0xf2, 0xff, 0xff, 0x04, 0x00, 0x00, 0x00,
    0x0c, 0x00, 0x00, 0x00, 0x6b, 0x65, 0x72, 0x61, 0x73, 0x5f, 0x74, 0x65,
    0x6e, 0x73, 0x6f, 0x72, 0x00, 0x00, 0x00, 0x00, 0x02, 0x00, 0x00, 0x00,
    0x34, 0x00, 0x00, 0x00, 0x04, 0x00, 0x00, 0x00, 0xdc, 0xff, 0xff, 0xff,
    0x10, 0x00, 0x00, 0x00, 0x04, 0x00, 0x00, 0x00, 0x13, 0x00, 0x00, 0x00,
    0x43, 0x4f, 0x4e, 0x56, 0x45, 0x52, 0x53, 0x49, 0x4f, 0x4e, 0x5f, 0x4d,
    0x45, 0x54, 0x41, 0x44, 0x41, 0x54, 0x41, 0x00, 0x08, 0x00, 0x0c, 0x00,
    0x08, 0x00, 0x04, 0x00, 0x08, 0x00, 0x00, 0x00, 0x0f, 0x00, 0x00, 0x00,
    0x04, 0x00, 0x00, 0x00, 0x13, 0x00, 0x00, 0x00, 0x6d, 0x69, 0x6e, 0x5f,
    0x72, 0x75, 0x6e, 0x74, 0x69, 0x6d, 0x65, 0x5f, 0x76, 0x65, 0x72, 0x73,
    0x69, 0x6f, 0x6e, 0x00, 0x11, 0x00, 0x00, 0x00, 0x0c, 0x0c, 0x00, 0x00,
    0x04, 0x0c, 0x00, 0x00, 0xb4, 0x0a, 0x00, 0x00, 0xa4, 0x06, 0x00, 0x00,
    0x94, 0x02, 0x00, 0x00, 0x70, 0x02, 0x00, 0x00, 0x20, 0x02, 0x00, 0x00,
    0xd0, 0x01, 0x00, 0x00, 0x80, 0x01, 0x00, 0x00, 0xb0, 0x00, 0x00, 0x00,
    0xa8, 0x00, 0x00, 0x00, 0xa0, 0x00, 0x00, 0x00, 0x98, 0x00, 0x00, 0x00,
    0x90, 0x00, 0x00, 0x00, 0x88, 0x00, 0x00, 0x00, 0x68, 0x00, 0x00, 0x00,
    0x04, 0x00, 0x00, 0x00, 0xa2, 0xf3, 0xff, 0xff, 0x04, 0x00, 0x00, 0x00,
    0x54, 0x00, 0x00, 0x00, 0x0c, 0x00, 0x00, 0x00, 0x08, 0x00, 0x0e, 0x00,
    0x08, 0x00, 0x04, 0x00, 0x08, 0x00, 0x00, 0x00, 0x10, 0x00, 0x00, 0x00,
    0x24, 0x00, 0x00, 0x00, 0x00, 0x00, 0x06, 0x00, 0x08, 0x00, 0x04, 0x00,
    0x06, 0x00, 0x00, 0x00, 0x04, 0x00, 0x00, 0x00, 0x00, 0x00, 0x00, 0x00,
    0x00, 0x00, 0x0a, 0x00, 0x10, 0x00, 0x0c, 0x00, 0x08, 0x00, 0x04, 0x00,
    0x0a, 0x00, 0x00, 0x00, 0x01, 0x00, 0x00, 0x00, 0x02, 0x00, 0x00, 0x00,
    0x04, 0x00, 0x00, 0x00, 0x06, 0x00, 0x00, 0x00, 0x32, 0x2e, 0x31, 0x36,
    0x2e, 0x31, 0x00, 0x00, 0x02, 0xf4, 0xff, 0xff, 0x04, 0x00, 0x00, 0x00,
    0x10, 0x00, 0x00, 0x00, 0x31, 0x2e, 0x35, 0x2e, 0x30, 0x00, 0x00, 0x00,
    0x00, 0x00, 0x00, 0x00, 0x00, 0x00, 0x00, 0x00, 0xe4, 0xed, 0xff, 0xff,
    0xe8, 0xed, 0xff, 0xff, 0xec, 0xed, 0xff, 0xff, 0xf0, 0xed, 0xff, 0xff,
    0xf4, 0xed, 0xff, 0xff, 0x32, 0xf4, 0xff, 0xff, 0x04, 0x00, 0x00, 0x00,
    0xc0, 0x00, 0x00, 0x00, 0x12, 0x53, 0xb5, 0x3e, 0x02, 0xad, 0xd5, 0xbe,
    0x4c, 0xe3, 0x30, 0x3a, 0x08, 0x32, 0x3c, 0xbe, 0xc9, 0x10, 0x03, 0xbf,
    0x0e, 0x39, 0xd6, 0x3e, 0xa8, 0xcd, 0x57, 0xbe, 0x00, 0x75, 0xa7, 0x3c,
    0xf0, 0x04, 0x06, 0x3d, 0xc4, 0x6c, 0x9a, 0x3e, 0x94, 0xa7, 0xeb, 0x3e,
    0x22, 0xc2, 0xc6, 0xbd, 0x8c, 0xe0, 0x02, 0xbf, 0x97, 0x16, 0x70, 0x3e,
    0x0e, 0x03, 0x9e, 0x3e, 0x3a, 0xc8, 0xfd, 0xbe, 0xfc, 0x09, 0x5d, 0x3e,
    0x70, 0xa4, 0xeb, 0x3d, 0x94, 0xf4, 0x42, 0x3e, 0x3b, 0x40, 0xd6, 0x3d,
    0xc6, 0x14, 0xf6, 0x3e, 0x0c, 0x49, 0xf2, 0x3e, 0xeb, 0xe8, 0x93, 0xbe,
    0x9f, 0xc6, 0xb0, 0x3e, 0xf9, 0x29, 0xed, 0xbe, 0x35, 0xa6, 0xf3, 0xbe,
    0x9c, 0xc2, 0x9f, 0xbd, 0x83, 0x23, 0xbe, 0x3e, 0xdc, 0x85, 0x88, 0x3e,
    0x88, 0xdd, 0xdd, 0x3e, 0xdc, 0x24, 0x1b, 0x3f, 0x97, 0xbb, 0xd7, 0xbd,
    0xbd, 0xf9, 0xae, 0xbe, 0xd6, 0x20, 0x89, 0xbe, 0x81, 0xfe, 0xd6, 0x3e,
    0xc5, 0xe1, 0x54, 0x3e, 0x5d, 0x6f, 0x4c, 0xbe, 0xee, 0x2d, 0xa3, 0x3e,
    0x04, 0x1b, 0x92, 0xbc, 0xd7, 0xa0, 0x7f, 0xbc, 0xf7, 0x48, 0x86, 0x3e,
    0xce, 0xf6, 0x99, 0xbe, 0x59, 0x3e, 0x09, 0xbe, 0x1d, 0x96, 0x48, 0x3e,
    0x66, 0xcc, 0xb6, 0x3e, 0xe6, 0x32, 0xba, 0x3e, 0xae, 0xcd, 0x9b, 0xbe,
    0xce, 0xce, 0x77, 0xbe, 0xfe, 0xf4, 0xff, 0xff, 0x04, 0x00, 0x00, 0x00,
    0x40, 0x00, 0x00, 0x00, 0xa5, 0x17, 0xaf, 0xbb, 0x00, 0x00, 0x00, 0x00,
    0x00, 0x00, 0x00, 0x00, 0x52, 0x61, 0xca, 0x3d, 0x57, 0x48, 0x75, 0xbd,
    0x00, 0x00, 0x00, 0x00, 0xdc, 0x34, 0xa1, 0xbc, 0x34, 0x70, 0xb8, 0xbc,
    0x00, 0x00, 0x00, 0x00, 0x48, 0xe6, 0xce, 0xbd, 0x63, 0x26, 0x5e, 0x3e,
    0x86, 0x06, 0x6b, 0xbe, 0x91, 0x83, 0x11, 0x3e, 0x37, 0x63, 0x0a, 0xbd,
    0x7c, 0x28, 0x56, 0xbd, 0x00, 0x00, 0x00, 0x00, 0x4a, 0xf5, 0xff, 0xff,
    0x04, 0x00, 0x00, 0x00, 0x40, 0x00, 0x00, 0x00, 0xfb, 0xef, 0xeb, 0x3d,
    0x00, 0x00, 0x00, 0x00, 0xd7, 0xe7, 0xd5, 0xbd, 0xcb, 0x57, 0x2d, 0xbe,
    0x00, 0x00, 0x00, 0x00, 0xe0, 0x4a, 0x3c, 0x3d, 0x00, 0x00, 0x00, 0x00,
    0xa9, 0x9b, 0x3c, 0x3e, 0x00, 0x00, 0x00, 0x00, 0x00, 0x00, 0x00, 0x00,
    0x00, 0x00, 0x00, 0x00, 0xa1, 0x6e, 0xf7, 0xbc, 0x00, 0x00, 0x00, 0x00,
    0x47, 0x19, 0x1a, 0x3c, 0x32, 0x1a, 0x2a, 0xbe, 0x00, 0x00, 0x00, 0x00,
    0x96, 0xf5, 0xff, 0xff, 0x04, 0x00, 0x00, 0x00, 0x40, 0x00, 0x00, 0x00,
    0x00, 0x00, 0x00, 0x00, 0xa7, 0xf8, 0x0a, 0x3e, 0x61, 0xa5, 0x1b, 0x3c,
    0x00, 0x00, 0x00, 0x00, 0xe9, 0x29, 0x0a, 0xbe, 0x86, 0x44, 0x07, 0xbd,
    0x00, 0x00, 0x00, 0x00, 0x00, 0x00, 0x00, 0x00, 0x00, 0x00, 0x00, 0x00,
    0xa3, 0xcd, 0x0d, 0xbd, 0x96, 0xea, 0x9f, 0x3d, 0xdd, 0x23, 0x08, 0xbd,
    0x6a, 0x0c, 0x13, 0x3d, 0x00, 0x00, 0x00, 0x00, 0x59, 0x0c, 0x1e, 0xbd,
    0xd2, 0xb3, 0x0a, 0x3d, 0xe2, 0xf5, 0xff, 0xff, 0x04, 0x00, 0x00, 0x00,
    0x14, 0x00, 0x00, 0x00, 0x88, 0x03, 0x7b, 0xbf, 0x2d, 0xcc, 0x24, 0x3d,
    0x35, 0x3e, 0x11, 0xbf, 0x1c, 0xb1, 0x02, 0x3f, 0x3d, 0x30, 0xa9, 0x3f,
    0x02, 0xf6, 0xff, 0xff, 0x04, 0x00, 0x00, 0x00, 0x00, 0x04, 0x00, 0x00,
    0x4c, 0x9b, 0x23, 0xbd, 0x59, 0x50, 0x47, 0xbe, 0xcb, 0x7c, 0x82, 0x3e,
    0x8d, 0x3b, 0x99, 0x3e, 0x0f, 0x4a, 0xa6, 0xbe, 0x20, 0x75, 0x53, 0x3c,
    0x3a, 0xb4, 0x5f, 0xbe, 0x7d, 0x60, 0xbd, 0xbe, 0xc2, 0x89, 0xaf, 0xbe,
    0x10, 0xfb, 0x01, 0x3e, 0xad, 0x10, 0xa5, 0x3e, 0xbf, 0xe6, 0x79, 0xbe,
    0x85, 0xdf, 0xa6, 0x3e, 0xd8, 0x1c, 0xa1, 0xbe, 0x09, 0xe1, 0x3a, 0x3e,
    0x58, 0xc8, 0x06, 0xbe, 0xef, 0xea, 0xcc, 0x3e, 0x75, 0x60, 0xa4, 0xbe,
    0xee, 0xb6, 0x90, 0xbe, 0x64, 0x15, 0xf6, 0x3d, 0xf3, 0x99, 0xb8, 0xbe,
    0xb5, 0xb9, 0xb8, 0x3e, 0xf1, 0xd0, 0xa3, 0xbe, 0xb0, 0xfa, 0x66, 0x3d,
    0x23, 0x49, 0x8c, 0x3e, 0x11, 0x1a, 0xcb, 0xbe, 0xc8, 0x2b, 0x65, 0xbe,
    0x7a, 0x9c, 0x29, 0x3e, 0x42, 0x02, 0x1f, 0x3e, 0x48, 0xed, 0x1e, 0xbe,
    0x98, 0x03, 0x9a, 0xbd, 0xc0, 0x4a, 0xc8, 0xbe, 0x89, 0xc4, 0xce, 0xbd,
    0xe8, 0x79, 0xb8, 0xbe, 0x04, 0xec, 0xa6, 0x3d, 0xc9, 0x0c, 0xe8, 0x3c,
    0x1f, 0xec, 0x89, 0xbe, 0x3b, 0x5c, 0xd9, 0x3e, 0x33, 0x81, 0x9c, 0x3d,
    0xb7, 0xf8, 0xf3, 0x3e, 0x80, 0x67, 0xd5, 0xbb, 0xc5, 0x78, 0x31, 0x3e,
    0x33, 0xac, 0x0d, 0x3c, 0xeb, 0x84, 0xa9, 0x3e, 0x04, 0x1c, 0x6b, 0x3e,
    0x4a, 0x5f, 0x41, 0x3e, 0xc1, 0x09, 0x70, 0xbe, 0x2c, 0x9f, 0xc9, 0x3d,
    0xdf, 0xe6, 0xc3, 0xbe, 0x15, 0x00, 0x94, 0xbe, 0xa6, 0x1d, 0x84, 0xbe,
    0xf7, 0xb1, 0x8e, 0xbe, 0xdc, 0x41, 0x31, 0x3e, 0x2b, 0xc0, 0xd0, 0x3e,
    0x2e, 0xdf, 0x86, 0xbb, 0x8f, 0xd8, 0xd4, 0x3d, 0x50, 0xb9, 0x81, 0xbe,
    0x67, 0x91, 0x21, 0xbd, 0x59, 0x7f, 0xec, 0xbe, 0x34, 0x79, 0xd0, 0x3e,
    0xb0, 0x22, 0x61, 0x3d, 0x80, 0xa3, 0x23, 0x3e, 0x1c, 0xf8, 0xe6, 0x3e,
    0xc4, 0x47, 0xd2, 0xbd, 0xa9, 0xcf, 0xcb, 0xbe, 0xfa, 0xde, 0x19, 0x3e,
    0x88, 0x5c, 0xa3, 0xbd, 0x82, 0xb2, 0x05, 0x3e, 0x84, 0x45, 0xd8, 0xbe,
    0xbc, 0xc0, 0xfd, 0xbd, 0x38, 0xbc, 0x8c, 0xbd, 0xd2, 0x7b, 0xaf, 0xbe,
    0xc0, 0xc2, 0xfe, 0xbb, 0x36, 0x97, 0xc4, 0xbe, 0x7a, 0x5b, 0x5d, 0x3e,
    0x75, 0xab, 0xbf, 0xbe, 0xfb, 0x7a, 0xb1, 0x3e, 0xe2, 0x84, 0x02, 0xbe,
    0x39, 0x69, 0x8f, 0x3e, 0x79, 0x84, 0x8e, 0xbe, 0x6e, 0xa1, 0xce, 0x3d,
    0x01, 0x1c, 0xa4, 0x3e, 0x3a, 0x5c, 0x0c, 0x3e, 0x9d, 0x6b, 0x33, 0x3c,
    0x97, 0xf5, 0xa3, 0xbe, 0xb0, 0x0c, 0x93, 0xbe, 0x66, 0xad, 0xb4, 0xbe,
    0x0a, 0xf5, 0x29, 0x3e, 0x76, 0xdf, 0xa3, 0xbe, 0xd5, 0xe5, 0x31, 0x3e,
    0x30, 0xe4, 0x21, 0xbe, 0x48, 0x67, 0xb0, 0x3e, 0x9d, 0x9c, 0x84, 0x3e,
    0x42, 0x47, 0xdd, 0xbe, 0x45, 0x17, 0xc7, 0x3c, 0x0b, 0x0b, 0xda, 0x3e,
    0x16, 0x11, 0x29, 0x3e, 0x49, 0x32, 0xa1, 0x3e, 0x86, 0xaf, 0x01, 0x3e,
    0x7c, 0x72, 0xca, 0xbd, 0x44, 0x08, 0x5c, 0xbe, 0x3a, 0x58, 0x05, 0x3e,
    0x63, 0x01, 0x56, 0xbe, 0x1c, 0x08, 0xae, 0xbe, 0x0e, 0x65, 0x33, 0xbe,
    0x00, 0x7d, 0xc8, 0xbb, 0xdf, 0x66, 0xda, 0x3e, 0x76, 0x1d, 0x8a, 0xbe,
    0x0f, 0xdf, 0xd5, 0xbe, 0x47, 0x97, 0xb4, 0xbe, 0xde, 0x39, 0x57, 0x3e,
    0x63, 0x74, 0xb6, 0x3e, 0x9d, 0x33, 0x95, 0xbd, 0xce, 0xe9, 0xc1, 0xbe,
    0xc0, 0xd2, 0xb4, 0xbb, 0xe2, 0xc5, 0xde, 0x3e, 0xaf, 0xf4, 0xa5, 0x3d,
    0xa0, 0x8d, 0x02, 0xbe, 0x97, 0x16, 0xb7, 0x3e, 0x45, 0x21, 0xa3, 0x3e,
    0x16, 0x8e, 0xa1, 0xbe, 0xfa, 0x76, 0x3e, 0x3d, 0x44, 0xec, 0x2d, 0x3f,
    0x7f, 0xc3, 0x9d, 0xbe, 0x22, 0xc5, 0xa8, 0x3e, 0x42, 0x76, 0x83, 0x3e,
    0xb4, 0xa5, 0x85, 0x3e, 0xe9, 0x83, 0xd5, 0x3e, 0xb0, 0x93, 0xd2, 0x3c,
    0x60, 0xa9, 0x4a, 0x3c, 0x50, 0xda, 0x8c, 0xbd, 0x6e, 0xd5, 0xd1, 0xbe,
    0x90, 0xf5, 0x3b, 0xbe, 0x2d, 0xfc, 0x82, 0x3e, 0x24, 0x31, 0xdb, 0x3d,
    0x0e, 0xff, 0x15, 0x3e, 0x6d, 0x17, 0xd0, 0xbe, 0xc0, 0x3a, 0xad, 0x3c,
    0xde, 0x3f, 0x10, 0xbe, 0x50, 0xc5, 0xc1, 0xbe, 0x1c, 0xf7, 0xfd, 0x3d,
    0x5d, 0x69, 0x9a, 0xbe, 0x00, 0x0c, 0x3d, 0x3d, 0xae, 0x88, 0xc2, 0xbe,
    0x1e, 0x70, 0x68, 0xbe, 0xdf, 0x82, 0xa9, 0x3e, 0x71, 0xe4, 0xae, 0x3e,
    0xab, 0x46, 0xa5, 0x3e, 0x97, 0xbe, 0xad, 0xbe, 0x93, 0x33, 0xd0, 0xbe,
    0xd2, 0x5a, 0x75, 0xbe, 0x90, 0x1a, 0xe3, 0xbd, 0x40, 0xd3, 0xec, 0xbd,
    0x87, 0x09, 0x87, 0xbe, 0xfd, 0xcb, 0x84, 0xbe, 0x2d, 0x86, 0xa5, 0xbe,
    0x06, 0x93, 0x38, 0x3e, 0x0e, 0xf9, 0x6f, 0x3e, 0xb8, 0xb0, 0x19, 0x3d,
    0x40, 0x54, 0xd2, 0x3c, 0x90, 0x60, 0x10, 0xbd, 0xf8, 0xa9, 0xb1, 0xbd,
    0xf8, 0xa3, 0x4e, 0x3d, 0x96, 0x3c, 0x8f, 0xbe, 0x3d, 0x90, 0x3e, 0xbe,
    0xae, 0xa2, 0x71, 0xbe, 0xdf, 0x7b, 0xdd, 0xbe, 0xe1, 0x10, 0xa4, 0x3e,
    0x30, 0xaf, 0x0c, 0x3d, 0x50, 0xeb, 0x5f, 0xbd, 0x2b, 0x05, 0xc2, 0x3e,
    0x45, 0x65, 0xb7, 0x3e, 0x69, 0x62, 0xaf, 0xbe, 0x1d, 0xd1, 0x41, 0xbe,
    0x2e, 0xb2, 0x16, 0x3e, 0x28, 0x32, 0x41, 0x3d, 0x6a, 0x70, 0xc0, 0xbd,
    0x01, 0x3f, 0xd2, 0x3e, 0x4f, 0x44, 0x74, 0xbe, 0x07, 0x7c, 0xbd, 0x3e,
    0x42, 0xe3, 0x3f, 0x3e, 0xf4, 0x27, 0xf2, 0x3d, 0xd3, 0x1b, 0x53, 0xbe,
    0x3f, 0x86, 0xc0, 0x3e, 0xb5, 0x6b, 0xd8, 0x3e, 0x8a, 0xbd, 0xac, 0x3e,
    0x4f, 0xcd, 0x90, 0xbe, 0xa1, 0xfe, 0x9d, 0x3e, 0x4e, 0x20, 0x07, 0xbf,
    0x8e, 0x83, 0xbf, 0x3e, 0xb4, 0xd8, 0xf8, 0xbc, 0x06, 0x73, 0x64, 0x3e,
    0x3b, 0xcd, 0xc7, 0x3e, 0xa1, 0x74, 0xc5, 0xbe, 0xe6, 0x39, 0x1b, 0x3e,
    0x6f, 0x0e, 0xce, 0xbe, 0x14, 0xe1, 0x10, 0xbe, 0x1c, 0x45, 0xc8, 0xbe,
    0xf0, 0x17, 0x91, 0xbd, 0x9c, 0x33, 0xf7, 0x3d, 0x94, 0x77, 0xd1, 0x3d,
    0x9f, 0xf1, 0xc0, 0xbe, 0xee, 0xb2, 0x28, 0x3e, 0xeb, 0x58, 0xb1, 0x3e,
    0x78, 0x37, 0x75, 0x3d, 0xd0, 0x62, 0xcc, 0xbd, 0x90, 0x69, 0xc0, 0xbe,
    0xfe, 0xa4, 0x7f, 0x3e, 0x90, 0xc4, 0x5a, 0x3d, 0x28, 0xad, 0x46, 0xbe,
    0xca, 0xda, 0xaa, 0xbe, 0xa7, 0xbc, 0xa6, 0xbe, 0x5c, 0x94, 0x1c, 0xbf,
    0x7c, 0xd9, 0xd9, 0x3d, 0x15, 0xf3, 0x91, 0x3e, 0xc8, 0xd8, 0xf8, 0x3e,
    0x06, 0x77, 0x26, 0xbe, 0xbe, 0xb5, 0x07, 0xbe, 0xb0, 0x2f, 0x0e, 0x3f,
    0xd6, 0x2a, 0xd1, 0xbe, 0x31, 0x8d, 0x9a, 0xbe, 0x49, 0xc9, 0x50, 0xbb,
    0xb0, 0x89, 0xba, 0x3e, 0xc5, 0x56, 0xa6, 0x3e, 0xc8, 0x43, 0x3c, 0x3e,
    0x00, 0x90, 0xb1, 0x3a, 0x4f, 0x35, 0xc1, 0xbe, 0x51, 0x5f, 0xc6, 0x3c,
    0x35, 0x65, 0x9f, 0x3e, 0x80, 0xe9, 0xaa, 0xbd, 0x1c, 0xbe, 0x3f, 0x3e,
    0x70, 0x5d, 0xba, 0xbe, 0x48, 0xfb, 0x2d, 0xbe, 0x8e, 0x66, 0xa5, 0x3e,
    0x2a, 0x7f, 0x45, 0xbf, 0xf6, 0x07, 0x69, 0x3e, 0x8d, 0xb4, 0x74, 0x3d,
    0xc1, 0x5a, 0x8a, 0x3e, 0x3e, 0x0f, 0xca, 0x3e, 0x5a, 0x0f, 0x7a, 0x3e,
    0x36, 0xa5, 0x51, 0x3e, 0x98, 0x84, 0x7d, 0xbe, 0x88, 0x4b, 0x32, 0xbd,
    0x1c, 0x30, 0x72, 0xbe, 0x06, 0x3b, 0x89, 0xbe, 0x90, 0xd5, 0xc3, 0x3c,
    0xc6, 0xd1, 0x05, 0x3e, 0xae, 0x58, 0x7e, 0x3e, 0x30, 0x91, 0xe8, 0xbd,
    0x88, 0xd9, 0x90, 0xbd, 0x0b, 0xfe, 0xa3, 0x3e, 0x8f, 0x12, 0xc6, 0xbe,
    0xde, 0x37, 0x0b, 0xbe, 0x2a, 0xb3, 0x0b, 0x3e, 0x51, 0xc9, 0x65, 0xbe,
    0xa7, 0x1e, 0x9c, 0x3e, 0x0e, 0xfa, 0xff, 0xff, 0x04, 0x00, 0x00, 0x00,
    0x00, 0x04, 0x00, 0x00, 0x47, 0x96, 0xb2, 0xbe, 0xac, 0xe2, 0x9b, 0x3d,
    0x68, 0x6a, 0x33, 0x3d, 0xac, 0xc5, 0xdf, 0x3d, 0x21, 0x9f, 0xa0, 0xbe,
    0x15, 0x29, 0xd5, 0x3e, 0x24, 0x1c, 0xe9, 0x3d, 0xe2, 0x4b, 0x7b, 0xbe,
    0x57, 0xd7, 0xa3, 0x3e, 0x48, 0x14, 0xd1, 0xbe, 0x76, 0x37, 0x50, 0x3e,
    0x80, 0x65, 0x7f, 0xbb, 0xcd, 0x8b, 0x95, 0x3e, 0xfa, 0x29, 0x77, 0x3e,
    0xcc, 0xc0, 0xbe, 0xbd, 0xa8, 0x5f, 0x35, 0xbe, 0xc7, 0xf0, 0x2b, 0x3f,
    0xba, 0x80, 0x07, 0xbe, 0x28, 0xeb, 0xd5, 0xbe, 0x59, 0x1a, 0x0b, 0xbf,
    0x84, 0x6c, 0xa7, 0xbd, 0xec, 0xca, 0x1e, 0x3e, 0xe8, 0xc8, 0x2e, 0xbe,
    0x0d, 0x4c, 0xd3, 0x3e, 0x28, 0x93, 0x98, 0xbd, 0xb4, 0x89, 0xd3, 0xbe,
    0x8b, 0x10, 0x70, 0xbe, 0xe1, 0x57, 0xc1, 0x3d, 0x4e, 0xe8, 0x72, 0xbe,
    0x76, 0xd5, 0x01, 0xbc, 0x8a, 0xf3, 0x9a, 0xbe, 0x80, 0x81, 0x50, 0xbe,
    0x68, 0x86, 0xf4, 0x3d, 0xf7, 0x6e, 0x8d, 0xbe, 0xb2, 0xe0, 0x41, 0xbe,
    0x45, 0xcd, 0x44, 0xbe, 0x08, 0xec, 0x89, 0xbe, 0xd0, 0x44, 0x9c, 0x3e,
    0x57, 0xa3, 0xd7, 0x3e, 0xb7, 0xa5, 0x54, 0xbd, 0xf2, 0x9e, 0x0c, 0xbe,
    0x86, 0x82, 0x68, 0x3e, 0x68, 0x86, 0xa8, 0xbe, 0xae, 0xeb, 0x22, 0x3e,
    0x6a, 0x71, 0x9a, 0xbe, 0x1b, 0x94, 0x48, 0xbe, 0xe0, 0x4b, 0xf9, 0xbd,
    0x12, 0x10, 0x23, 0x3e, 0x02, 0x3d, 0x95, 0xbe, 0x2f, 0x97, 0xd9, 0x3e,
    0xef, 0x4c, 0xd5, 0x3e, 0x00, 0xa8, 0x0f, 0x39, 0x74, 0x15, 0xd9, 0x3d,
    0x9c, 0xf1, 0xf8, 0x3d, 0x82, 0xa1, 0x31, 0xbe, 0x74, 0xae, 0x08, 0xbe,
    0x02, 0x58, 0x2d, 0x3e, 0x04, 0xdb, 0xc8, 0x3d, 0x9c, 0xda, 0x84, 0x3d,
    0x96, 0x60, 0x2a, 0xbe, 0xdd, 0xa6, 0xd8, 0xbe, 0x9b, 0xca, 0xd9, 0xbe,
    0xb5, 0x0e, 0x9b, 0xbe, 0xe4, 0xb8, 0xc9, 0xbe, 0xe8, 0x3a, 0xf5, 0xbe,
    0x17, 0x76, 0xbf, 0x3e, 0xef, 0xbb, 0x73, 0x3e, 0xb8, 0x2f, 0x26, 0xbe,
    0x5c, 0xd8, 0xe8, 0xbd, 0x32, 0xfe, 0xbb, 0xbd, 0x8a, 0x1c, 0x3c, 0x3e,
    0x46, 0xad, 0x84, 0xbe, 0x96, 0xc4, 0x7e, 0x3e, 0x90, 0x67, 0x9c, 0xbe,
    0xb6, 0x30, 0x3d, 0x3e, 0xb1, 0x8f, 0xd0, 0x3e, 0x87, 0x68, 0xb4, 0x3e,
    0x29, 0x49, 0x53, 0x3f, 0x14, 0x4a, 0x70, 0x3e, 0x88, 0xdc, 0x34, 0xbe,
    0x62, 0xb0, 0x1d, 0xbe, 0x4c, 0x63, 0x74, 0xbe, 0x66, 0xa1, 0x08, 0x3e,
    0x45, 0xa7, 0x22, 0x3e, 0xfc, 0xc3, 0x34, 0xbe, 0x88, 0xcd, 0xc8, 0xbd,
    0x30, 0x02, 0x23, 0xbe, 0xe4, 0xb2, 0xec, 0xbe, 0xca, 0x0f, 0xb2, 0xbe,
    0x6e, 0x54, 0x1a, 0x3e, 0xbc, 0xb6, 0x8b, 0x3d, 0xd9, 0x12, 0xa2, 0x3d,
    0x47, 0x7b, 0xcd, 0x3e, 0xe2, 0x99, 0xa1, 0x3e, 0xff, 0x8d, 0x60, 0x3e,
    0xc7, 0x11, 0xb4, 0x3e, 0xe7, 0xf1, 0x91, 0x3e, 0xea, 0x47, 0x98, 0xbe,
    0xec, 0x0f, 0xea, 0x3d, 0x0e, 0xd0, 0x51, 0x3e, 0xd0, 0x74, 0xdc, 0xbd,
    0x20, 0xe2, 0x84, 0x3d, 0x80, 0xcf, 0x71, 0xbb, 0xdb, 0x74, 0x93, 0xbe,
    0xb9, 0x62, 0xcf, 0x3e, 0xbd, 0x64, 0x7a, 0xbe, 0xe8, 0x1d, 0x5d, 0xbd,
    0xd5, 0x8f, 0x72, 0xbe, 0xa7, 0xaa, 0x58, 0xbe, 0xa0, 0x93, 0xd5, 0xbc,
    0xe2, 0xfc, 0xb3, 0xbe, 0x45, 0xad, 0xbd, 0x3e, 0x10, 0xcd, 0x1d, 0xbd,
    0xa0, 0xb6, 0xa2, 0xbd, 0x98, 0x26, 0x75, 0x3d, 0x93, 0xed, 0x96, 0x3e,
    0x9c, 0xb8, 0x28, 0xbe, 0x10, 0x6d, 0x19, 0xbe, 0xd5, 0xe5, 0xa0, 0x3e,
    0x58, 0xe2, 0x15, 0xbd, 0x18, 0x3e, 0x0b, 0xbe, 0x21, 0x12, 0xb5, 0x3e,
    0xe3, 0xcf, 0xa6, 0xbe, 0xbc, 0x62, 0x53, 0xbe, 0x6f, 0xab, 0xcb, 0x3e,
    0x42, 0x05, 0x2c, 0x3e, 0x38, 0x04, 0x04, 0xbd, 0x4b, 0x40, 0xd8, 0x3e,
    0xb0, 0xae, 0x06, 0xbe, 0x0c, 0x24, 0x99, 0xbe, 0xb4, 0x78, 0xd5, 0x3d,
    0xea, 0x97, 0x32, 0x3e, 0xd2, 0xbd, 0x5d, 0x3e, 0x2a, 0xe0, 0xca, 0xbe,
    0xcc, 0xe2, 0xf0, 0x3d, 0x46, 0x5a, 0x3b, 0xbe, 0x7c, 0x71, 0xd4, 0x3d,
    0xeb, 0xd0, 0x48, 0xbe, 0xa9, 0x89, 0xa6, 0x3e, 0x96, 0x93, 0x7d, 0xbe,
    0xe1, 0x3a, 0x5f, 0xbe, 0x70, 0x32, 0x55, 0x3d, 0x8a, 0xcb, 0x44, 0xbe,
    0x81, 0x67, 0xb8, 0x3e, 0x60, 0xd7, 0x54, 0xbc, 0x3b, 0xaf, 0xb7, 0xbe,
    0xe9, 0xcb, 0x6f, 0x3e, 0xa4, 0x32, 0xb4, 0xbe, 0x4b, 0x54, 0xac, 0xbe,
    0xd9, 0xf7, 0xa9, 0xbd, 0x84, 0x9a, 0xc0, 0x3d, 0x0a, 0x77, 0x41, 0xbe,
    0x80, 0x94, 0x07, 0xbb, 0x4a, 0x58, 0x52, 0x3e, 0xfa, 0x83, 0x65, 0x3e,
    0x8f, 0x3a, 0x88, 0x3d, 0xac, 0x49, 0xa7, 0xbe, 0x84, 0xc2, 0xeb, 0x3d,
    0x20, 0xaf, 0x9e, 0x3b, 0x50, 0xcf, 0xbc, 0xbd, 0xea, 0x29, 0xca, 0x3a,
    0xb9, 0x3c, 0xdb, 0x3e, 0xb8, 0x39, 0xed, 0x3d, 0xe8, 0x7c, 0x0b, 0xbf,
    0x49, 0x7f, 0x9c, 0x3e, 0xdd, 0x80, 0x02, 0xbe, 0xcc, 0xff, 0x9c, 0x3d,
    0x80, 0x88, 0x4f, 0x3c, 0xa4, 0xe3, 0xbb, 0x3d, 0x3a, 0x67, 0x49, 0xbe,
    0x0a, 0x91, 0x18, 0x3e, 0xfc, 0x6a, 0x98, 0x3c, 0x7b, 0xaf, 0x87, 0xbe,
    0x56, 0x77, 0x60, 0x3f, 0x38, 0x59, 0x1e, 0xbe, 0x61, 0xdb, 0xaf, 0x3e,
    0xb8, 0x0a, 0xc6, 0xbe, 0xee, 0x90, 0x26, 0x3e, 0x1e, 0x4e, 0x05, 0x3e,
    0x2c, 0xe4, 0x83, 0x3e, 0x01, 0x73, 0xaa, 0x3e, 0x26, 0x64, 0x61, 0xbc,
    0xff, 0x84, 0xb4, 0xbe, 0x3f, 0xd9, 0x8b, 0xbd, 0xce, 0x75, 0x71, 0x3e,
    0xc5, 0x05, 0xc6, 0x3e, 0xc9, 0xe6, 0xab, 0x3e, 0x7c, 0xc9, 0xb9, 0xbe,
    0x60, 0x28, 0x75, 0x3c, 0xe2, 0x23, 0x4b, 0xbe, 0xd3, 0xe3, 0x70, 0x3e,
    0xd2, 0xe1, 0x59, 0x3e, 0x7b, 0x7f, 0xb0, 0x3e, 0x04, 0x3d, 0xe8, 0x3d,
    0xd0, 0x16, 0x95, 0xbe, 0x0f, 0xe0, 0x9f, 0x3e, 0x66, 0x3e, 0x00, 0xbe,
    0xe9, 0x95, 0x3e, 0x3c, 0xc2, 0xfe, 0x3e, 0x3e, 0x10, 0xeb, 0x01, 0x3d,
    0xa0, 0x2a, 0x7e, 0xbc, 0x17, 0x72, 0xa1, 0x3e, 0x24, 0xe4, 0xf3, 0x3d,
    0x8d, 0x85, 0x5b, 0xbc, 0x3c, 0xd5, 0x8c, 0xbd, 0xe3, 0x00, 0x03, 0xbf,
    0x50, 0xb3, 0x89, 0x3e, 0xfb, 0x18, 0x82, 0x3e, 0xaa, 0x89, 0xa7, 0xbe,
    0xd0, 0x11, 0xf6, 0x3c, 0x2c, 0x54, 0xae, 0x3d, 0xc7, 0x50, 0x95, 0x3e,
    0x0a, 0x39, 0x44, 0x3e, 0xdd, 0x27, 0xb8, 0xbe, 0xc6, 0xa4, 0x35, 0xbe,
    0x98, 0x92, 0x24, 0xbe, 0xc8, 0x05, 0x02, 0xbd, 0x30, 0x5a, 0xf3, 0xbd,
    0x64, 0x48, 0xbd, 0xbd, 0x3c, 0xe7, 0xbf, 0x3d, 0x20, 0x7e, 0x33, 0x3d,
    0x0c, 0x48, 0x95, 0xbe, 0x01, 0xa3, 0xc0, 0xbe, 0x4d, 0x8b, 0xc9, 0x3e,
    0x48, 0x6f, 0x85, 0x3d, 0x75, 0x6c, 0xcd, 0x3e, 0x11, 0xe5, 0x65, 0xbe,
    0x81, 0x26, 0x17, 0xbe, 0x1e, 0xc4, 0x59, 0x3e, 0x5e, 0x79, 0xbb, 0x3e,
    0x5a, 0xdb, 0x09, 0x3e, 0xbc, 0x57, 0x80, 0xbe, 0x0e, 0x55, 0x0d, 0x3e,
    0x28, 0xdb, 0xc4, 0xbd, 0x44, 0x7e, 0xd2, 0x3d, 0xa6, 0x61, 0x3b, 0x3e,
    0xa6, 0x75, 0xa7, 0xbe, 0x5d, 0x88, 0xa1, 0x3e, 0x62, 0xce, 0x03, 0x3e,
    0xa4, 0x0b, 0xc0, 0xbe, 0x1b, 0xf5, 0xbb, 0xbe, 0x17, 0x4c, 0xb6, 0x3e,
    0x46, 0xd3, 0xc9, 0xbe, 0x9f, 0xa5, 0x59, 0x3e, 0xe8, 0x62, 0xd1, 0xbd,
    0xb4, 0x0b, 0x48, 0x3e, 0xcb, 0x29, 0xbe, 0x3e, 0xf6, 0x30, 0xbe, 0xbe,
    0x83, 0xac, 0x73, 0xbe, 0x70, 0x59, 0x51, 0x3d, 0x42, 0xdd, 0x4c, 0x3e,
    0xdb, 0x0b, 0xd0, 0x3e, 0x0c, 0xa2, 0xc3, 0xbe, 0xa1, 0x75, 0x66, 0xbe,
    0x24, 0x1a, 0x68, 0x3e, 0xe9, 0x94, 0xb1, 0x3e, 0x1a, 0xfe, 0xff, 0xff,
    0x04, 0x00, 0x00, 0x00, 0x40, 0x01, 0x00, 0x00, 0x67, 0xc1, 0x07, 0x3f,
    0x0d, 0xf0, 0xa4, 0x3f, 0xa1, 0xff, 0xc3, 0x3e, 0x4c, 0x0c, 0x27, 0x3e,
    0xcc, 0xd7, 0xd6, 0xbe, 0xa2, 0x94, 0xd2, 0xbe, 0xc6, 0x8e, 0x9f, 0x3e,
    0x34, 0x7d, 0x01, 0xbf, 0xc0, 0x95, 0xf5, 0xbe, 0x9d, 0x19, 0xb3, 0xbe,
    0xc9, 0x49, 0xec, 0x3f, 0x55, 0x6f, 0x28, 0x3e, 0xe3, 0xec, 0xf5, 0xbe,
    0xb0, 0x53, 0xdc, 0x3d, 0x29, 0x88, 0xba, 0xbe, 0x2d, 0xa9, 0xa4, 0x3e,
    0x40, 0x6e, 0x23, 0x3e, 0xf2, 0x9c, 0x7c, 0x3d, 0xcb, 0xd6, 0x97, 0x3d,
    0xb8, 0xf0, 0xf3, 0x3d, 0x8a, 0x24, 0xed, 0x3e, 0xc4, 0x8f, 0x5b, 0x3e,
    0x5c, 0x4b, 0x95, 0xbd, 0xc8, 0x61, 0xc0, 0x3e, 0xe1, 0x0a, 0xfd, 0xbe,
    0x2b, 0x42, 0xf8, 0x3e, 0xbb, 0x0b, 0x30, 0xbf, 0x93, 0x30, 0x7a, 0x3c,
    0x8b, 0x30, 0x39, 0xbe, 0xad, 0x7e, 0x02, 0xbf, 0x66, 0x79, 0x1c, 0x3e,
    0x57, 0x79, 0x07, 0xbe, 0x60, 0x16, 0x8a, 0x3e, 0x82, 0xc8, 0xd8, 0x3e,
    0x82, 0xbc, 0x11, 0x3e, 0xa0, 0xcb, 0x21, 0x3d, 0x81, 0x37, 0x80, 0x3e,
    0x32, 0x44, 0xd3, 0x3d, 0x90, 0x31, 0x88, 0x3d, 0x1e, 0x7b, 0x26, 0xbe,
    0x00, 0x37, 0xd4, 0x3d, 0xc9, 0xe4, 0xf9, 0x3e, 0xc7, 0x15, 0x19, 0x3f,
    0x65, 0x7e, 0x19, 0x3e, 0xc6, 0x0a, 0xcc, 0x3e, 0xfa, 0x68, 0xae, 0x3e,
    0x4c, 0x86, 0xf8, 0x3e, 0x36, 0xa6, 0x24, 0x3d, 0xb1, 0x6a, 0xe0, 0xbe,
    0xd6, 0x18, 0xc4, 0xbf, 0xe2, 0x3b, 0x35, 0xbe, 0x40, 0x75, 0x27, 0x3d,
    0x49, 0xae, 0x0e, 0x3f, 0xd8, 0x59, 0xa0, 0x39, 0xe8, 0xc0, 0x24, 0xbd,
    0x16, 0x03, 0xcb, 0x3e, 0x78, 0xdd, 0x9a, 0xbd, 0x24, 0xf9, 0x75, 0x3e,
    0xf0, 0xce, 0x24, 0xbe, 0xa6, 0x7c, 0xf6, 0x3d, 0x28, 0x7a, 0x8a, 0xbe,
    0x56, 0xc3, 0xce, 0xbe, 0xc7, 0xc9, 0x83, 0x3e, 0x65, 0x59, 0x5b, 0x3d,
    0xf0, 0xb7, 0x0a, 0x3e, 0x44, 0xe7, 0x32, 0x3f, 0xf1, 0x03, 0x08, 0x3f,
    0x9f, 0x68, 0xf2, 0xbe, 0x6e, 0x76, 0x8c, 0x3e, 0xd2, 0x25, 0xa8, 0xbd,
    0xd4, 0xc9, 0x11, 0x3e, 0x18, 0x12, 0x08, 0xbe, 0x80, 0x63, 0xfd, 0xbc,
    0xfd, 0xc6, 0x72, 0xbe, 0xb9, 0x9c, 0x44, 0xbf, 0xd1, 0xb1, 0x60, 0x3e,
    0x5e, 0x95, 0x1a, 0x3f, 0xd2, 0x8e, 0x48, 0xbe, 0x3e, 0x98, 0xff, 0xbe,
    0x30, 0xc5, 0x73, 0x3e, 0x2c, 0xf9, 0xff, 0xff, 0x30, 0xf9, 0xff, 0xff,
    0x0f, 0x00, 0x00, 0x00, 0x4d, 0x4c, 0x49, 0x52, 0x20, 0x43, 0x6f, 0x6e,
    0x76, 0x65, 0x72, 0x74, 0x65, 0x64, 0x2e, 0x00, 0x01, 0x00, 0x00, 0x00,
    0x14, 0x00, 0x00, 0x00, 0x00, 0x00, 0x0e, 0x00, 0x18, 0x00, 0x14, 0x00,
    0x10, 0x00, 0x0c, 0x00, 0x08, 0x00, 0x04, 0x00, 0x0e, 0x00, 0x00, 0x00,
    0x14, 0x00, 0x00, 0x00, 0x1c, 0x00, 0x00, 0x00, 0x5c, 0x01, 0x00, 0x00,
    0x60, 0x01, 0x00, 0x00, 0x64, 0x01, 0x00, 0x00, 0x04, 0x00, 0x00, 0x00,
    0x6d, 0x61, 0x69, 0x6e, 0x00, 0x00, 0x00, 0x00, 0x05, 0x00, 0x00, 0x00,
    0x04, 0x01, 0x00, 0x00, 0xbc, 0x00, 0x00, 0x00, 0x84, 0x00, 0x00, 0x00,
    0x50, 0x00, 0x00, 0x00, 0x14, 0x00, 0x00, 0x00, 0x00, 0x00, 0x0e, 0x00,
    0x1a, 0x00, 0x14, 0x00, 0x10, 0x00, 0x0c, 0x00, 0x0b, 0x00, 0x04, 0x00,
    0x0e, 0x00, 0x00, 0x00, 0x1c, 0x00, 0x00, 0x00, 0x00, 0x00, 0x00, 0x09,
    0x1c, 0x00, 0x00, 0x00, 0x20, 0x00, 0x00, 0x00, 0x01, 0x00, 0x00, 0x00,
    0x00, 0x00, 0x06, 0x00, 0x08, 0x00, 0x04, 0x00, 0x06, 0x00, 0x00, 0x00,
    0x00, 0x00, 0x80, 0x3f, 0x01, 0x00, 0x00, 0x00, 0x0d, 0x00, 0x00, 0x00,
    0x01, 0x00, 0x00, 0x00, 0x0c, 0x00, 0x00, 0x00, 0x66, 0xff, 0xff, 0xff,
    0x10, 0x00, 0x00, 0x00, 0x00, 0x00, 0x00, 0x08, 0x0c, 0x00, 0x00, 0x00,
    0x10, 0x00, 0x00, 0x00, 0xf8, 0xf9, 0xff, 0xff, 0x01, 0x00, 0x00, 0x00,
    0x0c, 0x00, 0x00, 0x00, 0x03, 0x00, 0x00, 0x00, 0x0b, 0x00, 0x00, 0x00,
    0x01, 0x00, 0x00, 0x00, 0x04, 0x00, 0x00, 0x00, 0x96, 0xff, 0xff, 0xff,
    0x10, 0x00, 0x00, 0x00, 0x00, 0x00, 0x00, 0x08, 0x10, 0x00, 0x00, 0x00,
    0x14, 0x00, 0x00, 0x00, 0x86, 0xff, 0xff, 0xff, 0x00, 0x00, 0x00, 0x01,
    0x01, 0x00, 0x00, 0x00, 0x0b, 0x00, 0x00, 0x00, 0x03, 0x00, 0x00, 0x00,
    0x0a, 0x00, 0x00, 0x00, 0x02, 0x00, 0x00, 0x00, 0x05, 0x00, 0x00, 0x00,
    0xca, 0xff, 0xff, 0xff, 0x10, 0x00, 0x00, 0x00, 0x00, 0x00, 0x00, 0x08,
    0x10, 0x00, 0x00, 0x00, 0x14, 0x00, 0x00, 0x00, 0xba, 0xff, 0xff, 0xff,
    0x00, 0x00, 0x00, 0x01, 0x01, 0x00, 0x00, 0x00, 0x0a, 0x00, 0x00, 0x00,
    0x03, 0x00, 0x00, 0x00, 0x09, 0x00, 0x00, 0x00, 0x03, 0x00, 0x00, 0x00,
    0x06, 0x00, 0x00, 0x00, 0x00, 0x00, 0x0e, 0x00, 0x16, 0x00, 0x00, 0x00,
    0x10, 0x00, 0x0c, 0x00, 0x0b, 0x00, 0x04, 0x00, 0x0e, 0x00, 0x00, 0x00,
    0x18, 0x00, 0x00, 0x00, 0x00, 0x00, 0x00, 0x08, 0x18, 0x00, 0x00, 0x00,
    0x1c, 0x00, 0x00, 0x00, 0x00, 0x00, 0x06, 0x00, 0x08, 0x00, 0x07, 0x00,
    0x06, 0x00, 0x00, 0x00, 0x00, 0x00, 0x00, 0x01, 0x01, 0x00, 0x00, 0x00,
    0x09, 0x00, 0x00, 0x00, 0x03, 0x00, 0x00, 0x00, 0x00, 0x00, 0x00, 0x00,
    0x08, 0x00, 0x00, 0x00, 0x07, 0x00, 0x00, 0x00, 0x01, 0x00, 0x00, 0x00,
    0x0d, 0x00, 0x00, 0x00, 0x01, 0x00, 0x00, 0x00, 0x00, 0x00, 0x00, 0x00,
    0x0e, 0x00, 0x00, 0x00, 0xfc, 0x04, 0x00, 0x00, 0xa4, 0x04, 0x00, 0x00,
    0x4c, 0x04, 0x00, 0x00, 0x0c, 0x04, 0x00, 0x00, 0xd0, 0x03, 0x00, 0x00,
    0x94, 0x03, 0x00, 0x00, 0x3c, 0x03, 0x00, 0x00, 0xe8, 0x02, 0x00, 0x00,
    0x9c, 0x02, 0x00, 0x00, 0x0c, 0x02, 0x00, 0x00, 0x74, 0x01, 0x00, 0x00,
    0xdc, 0x00, 0x00, 0x00, 0x60, 0x00, 0x00, 0x00, 0x04, 0x00, 0x00, 0x00,
    0x52, 0xfb, 0xff, 0xff, 0x00, 0x00, 0x00, 0x01, 0x14, 0x00, 0x00, 0x00,
    0x1c, 0x00, 0x00, 0x00, 0x1c, 0x00, 0x00, 0x00, 0x0e, 0x00, 0x00, 0x00,
    0x34, 0x00, 0x00, 0x00, 0x02, 0x00, 0x00, 0x00, 0xff, 0xff, 0xff, 0xff,
    0x05, 0x00, 0x00, 0x00, 0x3c, 0xfb, 0xff, 0xff, 0x1b, 0x00, 0x00, 0x00,
    0x53, 0x74, 0x61, 0x74, 0x65, 0x66, 0x75, 0x6c, 0x50, 0x61, 0x72, 0x74,
    0x69, 0x74, 0x69, 0x6f, 0x6e, 0x65, 0x64, 0x43, 0x61, 0x6c, 0x6c, 0x5f,
    0x31, 0x3a, 0x30, 0x00, 0x02, 0x00, 0x00, 0x00, 0x01, 0x00, 0x00, 0x00,
    0x05, 0x00, 0x00, 0x00, 0xaa, 0xfb, 0xff, 0xff, 0x00, 0x00, 0x00, 0x01,
    0x14, 0x00, 0x00, 0x00, 0x1c, 0x00, 0x00, 0x00, 0x1c, 0x00, 0x00, 0x00,
    0x0d, 0x00, 0x00, 0x00, 0x54, 0x00, 0x00, 0x00, 0x02, 0x00, 0x00, 0x00,
    0xff, 0xff, 0xff, 0xff, 0x05, 0x00, 0x00, 0x00, 0x94, 0xfb, 0xff, 0xff,
    0x38, 0x00, 0x00, 0x00, 0x73, 0x65, 0x71, 0x75, 0x65, 0x6e, 0x74, 0x69,
    0x61, 0x6c, 0x5f, 0x31, 0x2f, 0x64, 0x65, 0x6e, 0x73, 0x65, 0x5f, 0x33,
    0x5f, 0x31, 0x2f, 0x4d, 0x61, 0x74, 0x4d, 0x75, 0x6c, 0x3b, 0x73, 0x65,
    0x71, 0x75, 0x65, 0x6e, 0x74, 0x69, 0x61, 0x6c, 0x5f, 0x31, 0x2f, 0x64,
    0x65, 0x6e, 0x73, 0x65, 0x5f, 0x33, 0x5f, 0x31, 0x2f, 0x41, 0x64, 0x64,
    0x00, 0x00, 0x00, 0x00, 0x02, 0x00, 0x00, 0x00, 0x01, 0x00, 0x00, 0x00,
    0x05, 0x00, 0x00, 0x00, 0x22, 0xfc, 0xff, 0xff, 0x00, 0x00, 0x00, 0x01,
    0x14, 0x00, 0x00, 0x00, 0x1c, 0x00, 0x00, 0x00, 0x1c, 0x00, 0x00, 0x00,
    0x0c, 0x00, 0x00, 0x00, 0x70, 0x00, 0x00, 0x00, 0x02, 0x00, 0x00, 0x00,
    0xff, 0xff, 0xff, 0xff, 0x10, 0x00, 0x00, 0x00, 0x0c, 0xfc, 0xff, 0xff,
    0x54, 0x00, 0x00, 0x00, 0x73, 0x65, 0x71, 0x75, 0x65, 0x6e, 0x74, 0x69,
    0x61, 0x6c, 0x5f, 0x31, 0x2f, 0x64, 0x65, 0x6e, 0x73, 0x65, 0x5f, 0x32,
    0x5f, 0x31, 0x2f, 0x4d, 0x61, 0x74, 0x4d, 0x75, 0x6c, 0x3b, 0x73, 0x65,
    0x71, 0x75, 0x65, 0x6e, 0x74, 0x69, 0x61, 0x6c, 0x5f, 0x31, 0x2f, 0x64,
    0x65, 0x6e, 0x73, 0x65, 0x5f, 0x32, 0x5f, 0x31, 0x2f, 0x52, 0x65, 0x6c,
    0x75, 0x3b, 0x73, 0x65, 0x71, 0x75, 0x65, 0x6e, 0x74, 0x69, 0x61, 0x6c,
    0x5f, 0x31, 0x2f, 0x64, 0x65, 0x6e, 0x73, 0x65, 0x5f, 0x32, 0x5f, 0x31,
    0x2f, 0x41, 0x64, 0x64, 0x00, 0x00, 0x00, 0x00, 0x02, 0x00, 0x00, 0x00,
    0x01, 0x00, 0x00, 0x00, 0x10, 0x00, 0x00, 0x00, 0xb6, 0xfc, 0xff, 0xff,
    0x00, 0x00, 0x00, 0x01, 0x14, 0x00, 0x00, 0x00, 0x1c, 0x00, 0x00, 0x00,
    0x1c, 0x00, 0x00, 0x00, 0x0b, 0x00, 0x00, 0x00, 0x70, 0x00, 0x00, 0x00,
    0x02, 0x00, 0x00, 0x00, 0xff, 0xff, 0xff, 0xff, 0x10, 0x00, 0x00, 0x00,
    0xa0, 0xfc, 0xff, 0xff, 0x54, 0x00, 0x00, 0x00, 0x73, 0x65, 0x71, 0x75,
    0x65, 0x6e, 0x74, 0x69, 0x61, 0x6c, 0x5f, 0x31, 0x2f, 0x64, 0x65, 0x6e,
    0x73, 0x65, 0x5f, 0x31, 0x5f, 0x32, 0x2f, 0x4d, 0x61, 0x74, 0x4d, 0x75,
    0x6c, 0x3b, 0x73, 0x65, 0x71, 0x75, 0x65, 0x6e, 0x74, 0x69, 0x61, 0x6c,
    0x5f, 0x31, 0x2f, 0x64, 0x65, 0x6e, 0x73, 0x65, 0x5f, 0x31, 0x5f, 0x32,
    0x2f, 0x52, 0x65, 0x6c, 0x75, 0x3b, 0x73, 0x65, 0x71, 0x75, 0x65, 0x6e,
    0x74, 0x69, 0x61, 0x6c, 0x5f, 0x31, 0x2f, 0x64, 0x65, 0x6e, 0x73, 0x65,
    0x5f, 0x31, 0x5f, 0x32, 0x2f, 0x41, 0x64, 0x64, 0x00, 0x00, 0x00, 0x00,
    0x02, 0x00, 0x00, 0x00, 0x01, 0x00, 0x00, 0x00, 0x10, 0x00, 0x00, 0x00,
    0x4a, 0xfd, 0xff, 0xff, 0x00, 0x00, 0x00, 0x01, 0x14, 0x00, 0x00, 0x00,
    0x1c, 0x00, 0x00, 0x00, 0x1c, 0x00, 0x00, 0x00, 0x0a, 0x00, 0x00, 0x00,
    0x68, 0x00, 0x00, 0x00, 0x02, 0x00, 0x00, 0x00, 0xff, 0xff, 0xff, 0xff,
    0x10, 0x00, 0x00, 0x00, 0x34, 0xfd, 0xff, 0xff, 0x4e, 0x00, 0x00, 0x00,
    0x73, 0x65, 0x71, 0x75, 0x65, 0x6e, 0x74, 0x69, 0x61, 0x6c, 0x5f, 0x31,
    0x2f, 0x64, 0x65, 0x6e, 0x73, 0x65, 0x5f, 0x31, 0x2f, 0x4d, 0x61, 0x74,
    0x4d, 0x75, 0x6c, 0x3b, 0x73, 0x65, 0x71, 0x75, 0x65, 0x6e, 0x74, 0x69,
    0x61, 0x6c, 0x5f, 0x31, 0x2f, 0x64, 0x65, 0x6e, 0x73, 0x65, 0x5f, 0x31,
    0x2f, 0x52, 0x65, 0x6c, 0x75, 0x3b, 0x73, 0x65, 0x71, 0x75, 0x65, 0x6e,
    0x74, 0x69, 0x61, 0x6c, 0x5f, 0x31, 0x2f, 0x64, 0x65, 0x6e, 0x73, 0x65,
    0x5f, 0x31, 0x2f, 0x41, 0x64, 0x64, 0x00, 0x00, 0x02, 0x00, 0x00, 0x00,
    0x01, 0x00, 0x00, 0x00, 0x10, 0x00, 0x00, 0x00, 0x2a, 0xfe, 0xff, 0xff,
    0x00, 0x00, 0x00, 0x01, 0x10, 0x00, 0x00, 0x00, 0x10, 0x00, 0x00, 0x00,
    0x09, 0x00, 0x00, 0x00, 0x28, 0x00, 0x00, 0x00, 0xb0, 0xfd, 0xff, 0xff,
    0x1b, 0x00, 0x00, 0x00, 0x73, 0x65, 0x71, 0x75, 0x65, 0x6e, 0x74, 0x69,
    0x61, 0x6c, 0x5f, 0x31, 0x2f, 0x64, 0x65, 0x6e, 0x73, 0x65, 0x5f, 0x31,
    0x2f, 0x4d, 0x61, 0x74, 0x4d, 0x75, 0x6c, 0x00, 0x02, 0x00, 0x00, 0x00,
    0x10, 0x00, 0x00, 0x00, 0x03, 0x00, 0x00, 0x00, 0x72, 0xfe, 0xff, 0xff,
    0x00, 0x00, 0x00, 0x01, 0x10, 0x00, 0x00, 0x00, 0x10, 0x00, 0x00, 0x00,
    0x08, 0x00, 0x00, 0x00, 0x34, 0x00, 0x00, 0x00, 0xf8, 0xfd, 0xff, 0xff,
    0x27, 0x00, 0x00, 0x00, 0x73, 0x65, 0x71, 0x75, 0x65, 0x6e, 0x74, 0x69,
    0x61, 0x6c, 0x5f, 0x31, 0x2f, 0x64, 0x65, 0x6e, 0x73, 0x65, 0x5f, 0x31,
    0x2f, 0x41, 0x64, 0x64, 0x2f, 0x52, 0x65, 0x61, 0x64, 0x56, 0x61, 0x72,
    0x69, 0x61, 0x62, 0x6c, 0x65, 0x4f, 0x70, 0x00, 0x01, 0x00, 0x00, 0x00,
    0x10, 0x00, 0x00, 0x00, 0xc2, 0xfe, 0xff, 0xff, 0x00, 0x00, 0x00, 0x01,
    0x10, 0x00, 0x00, 0x00, 0x10, 0x00, 0x00, 0x00, 0x07, 0x00, 0x00, 0x00,
    0x38, 0x00, 0x00, 0x00, 0x48, 0xfe, 0xff, 0xff, 0x29, 0x00, 0x00, 0x00,
    0x73, 0x65, 0x71, 0x75, 0x65, 0x6e, 0x74, 0x69, 0x61, 0x6c, 0x5f, 0x31,
    0x2f, 0x64, 0x65, 0x6e, 0x73, 0x65, 0x5f, 0x31, 0x5f, 0x32, 0x2f, 0x41,
    0x64, 0x64, 0x2f, 0x52, 0x65, 0x61, 0x64, 0x56, 0x61, 0x72, 0x69, 0x61,
    0x62, 0x6c, 0x65, 0x4f, 0x70, 0x00, 0x00, 0x00, 0x01, 0x00, 0x00, 0x00,
    0x10, 0x00, 0x00, 0x00, 0x16, 0xff, 0xff, 0xff, 0x00, 0x00, 0x00, 0x01,
    0x10, 0x00, 0x00, 0x00, 0x10, 0x00, 0x00, 0x00, 0x06, 0x00, 0x00, 0x00,
    0x1c, 0x00, 0x00, 0x00, 0x9c, 0xfe, 0xff, 0xff, 0x0f, 0x00, 0x00, 0x00,
    0x61, 0x72, 0x69, 0x74, 0x68, 0x2e, 0x63, 0x6f, 0x6e, 0x73, 0x74, 0x61,
    0x6e, 0x74, 0x34, 0x00, 0x01, 0x00, 0x00, 0x00, 0x10, 0x00, 0x00, 0x00,
    0x4e, 0xff, 0xff, 0xff, 0x00, 0x00, 0x00, 0x01, 0x10, 0x00, 0x00, 0x00,
    0x10, 0x00, 0x00, 0x00, 0x05, 0x00, 0x00, 0x00, 0x1c, 0x00, 0x00, 0x00,
    0xd4, 0xfe, 0xff, 0xff, 0x0f, 0x00, 0x00, 0x00, 0x61, 0x72, 0x69, 0x74,
    0x68, 0x2e, 0x63, 0x6f, 0x6e, 0x73, 0x74, 0x61, 0x6e, 0x74, 0x33, 0x00,
    0x01, 0x00, 0x00, 0x00, 0x05, 0x00, 0x00, 0x00, 0x86, 0xff, 0xff, 0xff,
    0x00, 0x00, 0x00, 0x01, 0x10, 0x00, 0x00, 0x00, 0x10, 0x00, 0x00, 0x00,
    0x04, 0x00, 0x00, 0x00, 0x1c, 0x00, 0x00, 0x00, 0x0c, 0xff, 0xff, 0xff,
    0x0f, 0x00, 0x00, 0x00, 0x61, 0x72, 0x69, 0x74, 0x68, 0x2e, 0x63, 0x6f,
    0x6e, 0x73, 0x74, 0x61, 0x6e, 0x74, 0x32, 0x00, 0x02, 0x00, 0x00, 0x00,
    0x10, 0x00, 0x00, 0x00, 0x10, 0x00, 0x00, 0x00, 0xc2, 0xff, 0xff, 0xff,
    0x00, 0x00, 0x00, 0x01, 0x10, 0x00, 0x00, 0x00, 0x10, 0x00, 0x00, 0x00,
    0x03, 0x00, 0x00, 0x00, 0x1c, 0x00, 0x00, 0x00, 0x48, 0xff, 0xff, 0xff,
    0x0f, 0x00, 0x00, 0x00, 0x61, 0x72, 0x69, 0x74, 0x68, 0x2e, 0x63, 0x6f,
    0x6e, 0x73, 0x74, 0x61, 0x6e, 0x74, 0x31, 0x00, 0x02, 0x00, 0x00, 0x00,
    0x10, 0x00, 0x00, 0x00, 0x10, 0x00, 0x00, 0x00, 0x00, 0x00, 0x16, 0x00,
    0x18, 0x00, 0x14, 0x00, 0x00, 0x00, 0x10, 0x00, 0x0c, 0x00, 0x08, 0x00,
    0x00, 0x00, 0x00, 0x00, 0x00, 0x00, 0x07, 0x00, 0x16, 0x00, 0x00, 0x00,
    0x00, 0x00, 0x00, 0x01, 0x10, 0x00, 0x00, 0x00, 0x10, 0x00, 0x00, 0x00,
    0x02, 0x00, 0x00, 0x00, 0x1c, 0x00, 0x00, 0x00, 0x9c, 0xff, 0xff, 0xff,
    0x0e, 0x00, 0x00, 0x00, 0x61, 0x72, 0x69, 0x74, 0x68, 0x2e, 0x63, 0x6f,
    0x6e, 0x73, 0x74, 0x61, 0x6e, 0x74, 0x00, 0x00, 0x02, 0x00, 0x00, 0x00,
    0x05, 0x00, 0x00, 0x00, 0x10, 0x00, 0x00, 0x00, 0x00, 0x00, 0x16, 0x00,
    0x1c, 0x00, 0x18, 0x00, 0x00, 0x00, 0x14, 0x00, 0x10, 0x00, 0x0c, 0x00,
    0x00, 0x00, 0x00, 0x00, 0x08, 0x00, 0x07, 0x00, 0x16, 0x00, 0x00, 0x00,
    0x00, 0x00, 0x00, 0x01, 0x14, 0x00, 0x00, 0x00, 0x20, 0x00, 0x00, 0x00,
    0x20, 0x00, 0x00, 0x00, 0x01, 0x00, 0x00, 0x00, 0x3c, 0x00, 0x00, 0x00,
    0x02, 0x00, 0x00, 0x00, 0xff, 0xff, 0xff, 0xff, 0x03, 0x00, 0x00, 0x00,
    0x04, 0x00, 0x04, 0x00, 0x04, 0x00, 0x00, 0x00, 0x1e, 0x00, 0x00, 0x00,
    0x73, 0x65, 0x72, 0x76, 0x69, 0x6e, 0x67, 0x5f, 0x64, 0x65, 0x66, 0x61,
    0x75, 0x6c, 0x74, 0x5f, 0x6b, 0x65, 0x72, 0x61, 0x73, 0x5f, 0x74, 0x65,
    0x6e, 0x73, 0x6f, 0x72, 0x3a, 0x30, 0x00, 0x00, 0x02, 0x00, 0x00, 0x00,
    0x01, 0x00, 0x00, 0x00, 0x03, 0x00, 0x00, 0x00, 0x02, 0x00, 0x00, 0x00,
    0x20, 0x00, 0x00, 0x00, 0x04, 0x00, 0x00, 0x00, 0xf4, 0xff, 0xff, 0xff,
    0x19, 0x00, 0x00, 0x00, 0x00, 0x00, 0x00, 0x19, 0x0c, 0x00, 0x0c, 0x00,
    0x0b, 0x00, 0x00, 0x00, 0x00, 0x00, 0x04, 0x00, 0x0c, 0x00, 0x00, 0x00,
    0x09, 0x00, 0x00, 0x00, 0x00, 0x00, 0x00, 0x09};

const int model_tflite_len = 5216;
